<blk> 0
<sos/eos> 1
<unk> 2
▁HAI 3
▁KHÔNG 4
▁TRĂM 5
▁MỘT 6
▁BA 7
▁MƯƠI 8
▁LÀ 9
▁NĂM 10
▁VÀ 11
▁CỦA 12
▁CHÍN 13
▁SÁU 14
▁TÁM 15
▁BỐN 16
▁CÓ 17
N 18
I 19
▁CÁC 20
▁TRONG 21
T 22
NG 23
▁ĐƯỢC 24
▁CHO 25
▁VỚI 26
▁NGƯỜI 27
▁ĐÃ 28
M 29
▁MƯỜI 30
▁NGHÌN 31
▁NGÀY 32
O 33
▁NGÀN 34
▁BẢY 35
▁BẨY 36
U 37
▁NÀY 38
▁NHỮNG 39
▁CÔNG 40
▁RA 41
C 42
▁Ở 43
▁ĐỂ 44
▁TRÊN 45
▁ĐÓ 46
▁KHI 47
▁TẠI 48
▁ĐẾN 49
Y 50
P 51
▁THÌ 52
▁SẼ 53
▁VỀ 54
▁CŨNG 55
▁NHƯ 56
A 57
▁MÀ 58
▁TỪ 59
▁THÁNG 60
▁MÌNH 61
▁CÁI 62
▁GIỜ 63
▁VÀO 64
▁PHẨY 65
▁ANH 66
▁THỂ 67
▁THÀNH 68
▁NAM 69
▁ÂM 70
▁ĐỒNG 71
▁SỐ 72
▁LẠI 73
▁BỊ 74
▁NHÀ 75
▁QUỐC 76
▁ĐẦU 77
▁HIỆN 78
▁NHIỀU 79
▁LÀM 80
▁B 81
▁ĐI 82
S 83
▁PHẢI 84
▁SỰ 85
▁VIỆT 86
▁ÔNG 87
▁THEO 88
▁ 89
▁TÔI 90
▁EM 91
▁SAU 92
▁VIỆC 93
▁CHÍNH 94
▁TRIỆU 95
▁NƯỚC 96
▁TA 97
▁NHÂN 98
▁A 99
▁BẠN 100
▁CON 101
▁ĐỘNG 102
▁BỘ 103
▁S 104
▁CHẤM 105
▁GIA 106
▁HÀNG 107
▁CHỈ 108
▁THÔNG 109
▁THẾ 110
▁M 111
▁MỐT 112
▁QUAN 113
E 114
▁NÓ 115
▁BIẾT 116
▁NHƯNG 117
▁ĐÂY 118
▁V 119
▁TRUNG 120
▁HƠN 121
▁ĐANG 122
▁CÒN 123
▁TƯ 124
▁TỚI 125
▁ĐỊNH 126
▁VIÊN 127
▁NHẤT 128
▁RẤT 129
▁MỚI 130
▁TRƯỚC 131
▁CA 132
▁CHÚNG 133
▁QUA 134
▁C 135
G 136
H 137
▁CƠ 138
▁ĐIỀU 139
▁THỜI 140
▁HỌC 141
▁TRƯỜNG 142
▁DÂN 143
▁GIÁ 144
▁TIN 145
▁CẢ 146
▁PHÁT 147
▁HỘI 148
▁I 149
▁CÙNG 150
▁L 151
▁NÓI 152
▁ẢNH 153
▁RỒI 154
▁R 155
▁AN 156
▁LÊN 157
NH 158
▁SINH 159
▁THỰC 160
▁TH 161
▁HÀNH 162
▁NHẬN 163
▁VỤ 164
▁HÌNH 165
▁ĐỐI 166
▁HỢP 167
▁NGANG 168
▁VÌ 169
▁DO 170
D 171
▁MỸ 172
▁TẾ 173
▁THẤY 174
▁XE 175
▁CUỘC 176
▁Đ 177
▁CHỦ 178
▁G 179
R 180
▁TIẾP 181
▁N 182
▁ĐỀ 183
▁THỦ 184
▁CÔ 185
▁HÀ 186
▁ĐẠI 187
▁LINH 188
▁H 189
▁CAO 190
▁ĐỘ 191
▁SẢN 192
▁BÁO 193
▁KẾT 194
▁CÁCH 195
▁T 196
▁NAY 197
▁LIÊN 198
▁D 199
▁NÊN 200
▁XUẤT 201
▁GẠCH 202
▁E 203
▁DỤNG 204
▁DỰ 205
▁NÀO 206
▁LÝ 207
▁CHỨC 208
▁TRÌNH 209
▁THỊ 210
▁GÌ 211
▁LƯỢNG 212
▁BẢN 213
▁GIỚI 214
▁O 215
▁MÉT 216
▁TỔNG 217
▁RẰNG 218
▁KHÁC 219
▁ĐƯỜNG 220
▁PHÚT 221
▁TÌNH 222
▁HỌ 223
▁NGHIỆP 224
▁THỐNG 225
B 226
▁TĂNG 227
▁U 228
▁ĐIỂM 229
▁CHỊ 230
- 231
▁TIỀN 232
▁VẪN 233
ER 234
▁NỘI 235
▁TÀI 236
▁PHẦN 237
▁KINH 238
K 239
CH 240
▁BÌNH 241
▁PHỐ 242
▁GIẢI 243
▁KHU 244
▁NG 245
▁TÁC 246
▁VẬY 247
▁CẦU 248
▁LẺ 249
▁HAY 250
▁CH 251
▁NH 252
▁CHÉO 253
▁THỨ 254
AN 255
▁LỰC 256
▁TÂM 257
Ế 258
▁PHÒNG 259
▁TỰ 260
▁GIAO 261
▁TOÀN 262
▁LẦN 263
▁VĂN 264
▁BẢO 265
▁MẶT 266
▁MINH 267
▁NĂNG 268
▁THƯƠNG 269
▁VỊ 270
▁GIÂY 271
▁Ý 272
▁TỔ 273
▁DIỄN 274
▁CẤP 275
▁BÀ 276
▁BỐ 277
▁X 278
RA 279
▁ĐIỆN 280
▁ĐỘI 281
▁BÊN 282
▁DỊCH 283
▁LỚN 284
L 285
▁TẬP 286
▁PHÁP 287
▁MÁY 288
▁BỆNH 289
Á 290
▁ĂN 291
▁TUỔI 292
▁QUÁ 293
▁KHOẢNG 294
▁CHƯA 295
▁SAO 296
▁DOANH 297
▁NẾU 298
▁THU 299
▁NGOÀI 300
▁HỆ 301
▁VI 302
▁VỪA 303
▁BẰNG 304
▁TIÊN 305
Ả 306
▁CẢM 307
▁CẢNH 308
▁TRIỂN 309
▁CHIẾN 310
▁XÃ 311
▁QUY 312
▁CẦN 313
▁TRỪ 314
▁BAN 315
V 316
▁THANH 317
▁QUÂN 318
▁K 319
▁GIAN 320
▁BẮT 321
▁THƯỜNG 322
▁NHIÊN 323
▁LĂM 324
▁KI 325
▁ÁN 326
▁THI 327
▁PHƯƠNG 328
▁KHÁCH 329
▁ĐƯA 330
▁TẠO 331
▁TR 332
▁TÍNH 333
▁P 334
▁SỬ 335
Ắ 336
Ạ 337
▁Y 338
▁TRA 339
▁GẦN 340
▁KỲ 341
▁TRỞ 342
▁LO 343
▁TRANG 344
Ô 345
▁QUẢ 346
▁CỘNG 347
▁Ạ 348
▁TỈNH 349
Ố 350
▁SÁT 351
RI 352
▁MUỐN 353
▁TRỌNG 354
IN 355
▁SĨ 356
▁CHÍ 357
▁HÓA 358
▁Á 359
▁QUYẾT 360
. 361
▁TRƯỞNG 362
▁BÁN 363
▁YÊU 364
▁THỨC 365
▁SỐNG 366
▁TRỊ 367
▁MI 368
▁TY 369
▁NHĂM 370
▁CHI 371
▁HIỆU 372
▁VỰC 373
▁NGUYỄN 374
▁ĐẠO 375
▁SỞ 376
X 377
▁THAM 378
▁F 379
▁LÚC 380
RO 381
▁SO 382
▁ĐỊA 383
▁GIÚP 384
▁BẤT 385
▁MẠNH 386
▁TIÊU 387
▁TÊN 388
▁TỤC 389
▁HÔM 390
▁NỮA 391
Ấ 392
▁GA 393
RE 394
▁CÁ 395
Ê 396
▁LI 397
EN 398
▁HỒ 399
▁CHUYỂN 400
▁CHIẾC 401
▁MA 402
▁LÔ 403
▁CHIA 404
▁GI 405
▁PHẨM 406
Z 407
Ọ 408
▁KIỂM 409
▁HOẠT 410
LE 411
▁CHẤT 412
▁HOA 413
▁NỮ 414
▁TIẾN 415
▁LUÔN 416
▁ĐẤU 417
▁TAY 418
W 419
LA 420
▁VẤN 421
▁LOẠI 422
▁HOÀN 423
▁ĐÔNG 424
▁BAY 425
▁NGHỆ 426
▁TÌM 427
▁TIẾNG 428
▁NHAU 429
▁KHIẾN 430
▁HẾT 431
▁KHÓ 432
▁BIỆT 433
Ệ 434
▁GIẢM 435
▁ĐẶC 436
▁ĐÁNH 437
▁TUY 438
/ 439
▁MUA 440
▁ĐỔI 441
▁THÊM 442
▁TRẬN 443
▁DI 444
▁THIẾT 445
▁ĐÚNG 446
NA 447
▁QUYỀN 448
▁CHUYỆN 449
▁SÁNG 450
▁MỨC 451
▁ĐÌNH 452
AR 453
▁NGA 454
Â 455
ON 456
▁GIỮA 457
▁CỔ 458
Ồ 459
▁CÂU 460
▁THÂN 461
▁MẸ 462
▁LỜI 463
Ò 464
▁MỌI 465
▁VÒNG 466
▁MANG 467
▁ÉP 468
▁CỨU 469
F 470
Ù 471
▁NGÂN 472
▁KHAI 473
▁ĐẤT 474
▁MẠNG 475
▁DÙNG 476
À 477
▁TƯỢNG 478
▁BAO 479
▁ĐOÀN 480
▁ĐỀU 481
LI 482
▁KIẾN 483
▁TRÍ 484
▁TRẺ 485
▁TỐT 486
▁AI 487
▁PHẠM 488
▁NHẬP 489
▁TRUYỀN 490
▁DẪN 491
▁XEM 492
▁CHƯƠNG 493
Ộ 494
▁ỨNG 495
▁TẤN 496
EL 497
▁QUÝ 498
▁TRỢ 499
▁LẬP 500
▁NGUYÊN 501
▁TÍCH 502
▁VIỆN 503
▁VÔ 504
▁PHỦ 505
▁GÂY 506
▁GIẢ 507
▁THÁI 508
▁NGHỊ 509
▁BỎ 510
ES 511
▁KẾ 512
▁GỌI 513
▁GIÁO 514
▁BIỂN 515
▁NGAY 516
▁LA 517
▁CHUNG 518
▁NHẬT 519
▁SÁCH 520
▁GẶP 521
▁CHÂU 522
▁TỪNG 523
ST 524
É 525
▁DU 526
▁KH 527
▁CỨ 528
▁ĐƠN 529
▁CỐ 530
▁HOẶC 531
▁TỬ 532
▁XÁC 533
▁HẢI 534
▁ĐĂNG 535
▁ĐẸP 536
▁DIỆN 537
▁ĐÁ 538
▁CUỐI 539
▁SỨC 540
▁ĐẤY 541
▁CHẾ 542
▁THÔI 543
Ã 544
▁BÀN 545
▁NGUỒN 546
▁XOẸT 547
▁HỘ 548
▁XUỘC 549
▁CHỨNG 550
▁NHIỆM 551
AL 552
▁GIỮ 553
▁TẤT 554
▁LỊCH 555
▁BÓNG 556
▁MỖI 557
▁GỜ 558
▁ẤY 559
▁VŨ 560
▁BỞI 561
▁PHỤ 562
▁KHÍ 563
Ầ 564
▁VỆ 565
▁CÁO 566
▁THUỘC 567
▁TI 568
▁DA 569
▁HỒI 570
▁NHÌN 571
▁HÒA 572
▁THÍCH 573
▁THAY 574
LO 575
▁SA 576
IA 577
▁KHỐI 578
▁VẬT 579
CO 580
▁XÂY 581
▁HOÀNG 582
▁MỜ 583
Ớ 584
▁HA 585
▁DÙ 586
▁VÊ 587
▁BIỂU 588
▁HỎI 589
▁HO 590
▁TO 591
▁DỰNG 592
▁BÂY 593
▁MỞ 594
▁PHÍA 595
▁ĐÊ 596
▁SÂN 597
▁KÝ 598
▁ĐOẠN 599
▁PHỤC 600
▁CHÚ 601
▁NGOẠI 602
▁LAN 603
▁ĐỒ 604
▁TÀU 605
▁LỜ 606
▁DANH 607
▁BIẾN 608
▁ĐẠT 609
▁DÀI 610
Ư 611
▁KHẨU 612
▁NƠI 613
▁HƯỚNG 614
J 615
▁RỜ 616
▁LUẬT 617
▁CHUYÊN 618
▁TRANH 619
▁ĐÂU 620
▁NỜ 621
▁NGHĨ 622
▁DÉT 623
OR 624
▁KHÁ 625
Ỡ 626
▁BÉ 627
▁MẤT 628
▁GÁI 629
▁QUẢN 630
▁HẠN 631
▁LỘ 632
▁DẠ 633
▁XIN 634
Ú 635
▁KHOA 636
▁NHÓM 637
▁ĐÔ 638
HA 639
▁GHI 640
▁PH 641
Ơ 642
▁HUYỆN 643
▁GIÁM 644
▁ĐỨC 645
TE 646
TA 647
▁CHƠI 648
▁SANG 649
▁KỂ 650
▁THẬT 651
▁LIỆU 652
▁PHIM 653
▁THOẠI 654
▁XUỐNG 655
▁TRẢ 656
▁LỢI 657
▁LẤY 658
▁Ô 659
▁KHOẢN 660
▁MẮT 661
▁KIỆN 662
▁CO 663
▁ĐẶT 664
▁CHỌN 665
▁OÁT 666
▁VẬN 667
▁LUYỆN 668
▁THẮNG 669
▁HỮU 670
▁TỜ 671
▁CHỐNG 672
▁TUẦN 673
MA 674
▁TƯƠNG 675
▁BÀI 676
▁ĐA 677
▁HẬU 678
▁NHỎ 679
▁PHÁ 680
▁KHẢ 681
▁HỖ 682
▁W 683
▁BẮC 684
▁MỤC 685
▁CỬA 686
▁RÕ 687
Ă 688
▁À 689
▁NẠN 690
▁MẪU 691
▁NỔI 692
▁TƯỚNG 693
▁VÀNG 694
▁TỊCH 695
▁LÃNH 696
▁XI 697
▁ĐỜI 698
▁USD 699
▁SẺ 700
▁ỦY 701
Ó 702
▁TU 703
▁NA 704
▁XỬ 705
▁SE 706
NE 707
CK 708
▁DƯƠNG 709
▁DƯỚI 710
▁TIẾT 711
▁XẢY 712
▁RO 713
▁ÍT 714
▁SƯ 715
▁NGHE 716
▁QU 717
▁CHUẨN 718
▁VÙNG 719
▁TRÁI 720
▁THUẬT 721
▁NINH 722
▁HÁT 723
▁BÁC 724
▁TỐ 725
▁NGHIỆM 726
▁HIỂU 727
▁TRÒ 728
▁NGHĨA 729
TH 730
▁VÍ 731
▁CHA 732
▁CỤ 733
▁BÊ 734
▁VUÔNG 735
▁NHA 736
▁ĐỦ 737
▁MÃ 738
TI 739
Í 740
Ụ 741
▁THƯ 742
▁PHONG 743
▁ÁP 744
▁TRỰC 745
▁VỢ 746
LL 747
▁PHÓ 748
▁PHÂN 749
▁CUNG 750
▁TÂY 751
▁ÍCH 752
US 753
▁PHÍ 754
Ở 755
▁GỒM 756
DA 757
TO 758
▁CHÂN 759
▁KIM 760
▁TRÚ 761
▁PHI 762
▁LUẬN 763
▁HOẠCH 764
▁TẢI 765
▁NHANH 766
▁HUẤN 767
NI 768
SS 769
▁ĐÁNG 770
▁TỨC 771
▁CHẾT 772
▁CỰC 773
▁NHẰM 774
▁VỌNG 775
▁HUY 776
▁TỐI 777
▁TUYÊN 778
▁BÍ 779
▁HƯỞNG 780
BA 781
▁VỐN 782
▁NGHIÊN 783
▁LƯU 784
▁CÂY 785
▁LÒNG 786
▁BƯỚC 787
▁HẠ 788
▁LỄ 789
▁ĐÀN 790
▁CỬ 791
▁BỜ 792
▁MÊ 793
▁TINH 794
Ì 795
▁CHỒNG 796
ET 797
▁THUẬN 798
▁CHU 799
▁TUYỂN 800
▁THẦN 801
▁TÔ 802
▁ĐỐC 803
▁MÀU 804
UR 805
▁CẠNH 806
▁SẮC 807
▁SƠN 808
▁NHẠC 809
▁NÔNG 810
DE 811
ỀN 812
▁QUẢNG 813
▁ĐÓNG 814
▁VUI 815
▁ĐỨNG 816
▁TRẦN 817
▁LAO 818
▁ẤN 819
▁PHIÊN 820
▁XÊ 821
▁ĐẢO 822
▁XÉT 823
▁KHỎI 824
▁CHỨ 825
▁SU 826
▁NGÀNH 827
▁HY 828
▁PHÓNG 829
▁PHÉP 830
▁CHẠY 831
▁HÀN 832
▁MÙA 833
▁MẠI 834
CE 835
Ứ 836
▁ĐÀO 837
▁CÀNG 838
▁CHIỀU 839
VI 840
▁MẶC 841
▁CHẮC 842
CA 843
▁RIÊNG 844
▁VỜ 845
▁TRAI 846
▁GIỐNG 847
▁BI 848
▁NHỚ 849
▁YẾU 850
▁GỬI 851
▁TRÁCH 852
▁IN 853
▁DUNG 854
▁DUY 855
DI 856
▁BIÊN 857
▁XA 858
▁ĐỘC 859
▁CƯ 860
▁TỶ 861
▁NGHI 862
▁TRẠNG 863
▁NẰM 864
▁PHẢN 865
▁MÙNG 866
ND 867
Ợ 868
▁CĂN 869
▁VIDEO 870
▁CỜ 871
Ự 872
▁TƯỞNG 873
▁DẦU 874
▁ĐẢM 875
▁ÁO 876
Ề 877
▁HÃNG 878
▁TÙ 879
▁QUAY 880
TER 881
▁DỄ 882
▁Z 883
SE 884
▁LỆ 885
▁DÀNH 886
▁LE 887
▁LẠ 888
▁MÔ 889
▁ĐÊM 890
▁NGUY 891
▁QUẬN 892
▁XEN 893
▁TỎ 894
▁LẠC 895
Ổ 896
▁MO 897
▁ĐÔI 898
▁HIỆP 899
▁KỶ 900
▁PA 901
IL 902
SA 903
Ẩ 904
▁TÊ 905
▁LỬA 906
▁BUỔI 907
▁ĐẦY 908
▁KỸ 909
▁& 910
▁HU 911
▁MỒNG 912
▁CỤC 913
▁NGÔI 914
▁DỤC 915
Ỗ 916
▁LÊ 917
▁THỬ 918
▁NGỜ 919
Ặ 920
▁Ờ 921
▁RỘNG 922
▁KHĂN 923
Ủ 924
▁TRỜI 925
▁SOÁT 926
▁MÓN 927
▁NI 928
Ỉ 929
▁NGỌC 930
ME 931
▁HI 932
▁LONG 933
▁TUYẾN 934
▁LÂU 935
▁CƯỜNG 936
▁MAI 937
▁XUÂN 938
▁THẢO 939
GE 940
È 941
▁THÚC 942
▁THIÊN 943
▁KHO 944
▁PHÚC 945
▁TRÀ 946
▁ÉT 947
▁ĐÀI 948
▁THUỐC 949
▁TỘI 950
▁NIÊN 951
▁CHUYẾN 952
▁ĐẮP 953
OL 954
▁CHỖ 955
▁GÓP 956
▁MẤY 957
▁ĐẢNG 958
▁QUÁN 959
▁VAI 960
▁THIẾU 961
▁TRI 962
Ũ 963
▁SIÊU 964
▁GIAI 965
▁KHẲNG 966
▁THIỆN 967
▁TOÁN 968
▁TÒA 969
▁TRAO 970
▁KÉP 971
▁JO 972
▁TỈ 973
▁THẦY 974
▁ÂU 975
▁CHỊU 976
▁AL 977
▁PHÚ 978
▁TÁ 979
▁LÁ 980
KI 981
▁CHẤP 982
▁ĐÀ 983
▁CẬU 984
Ẫ 985
▁SỜ 986
▁KIẾM 987
▁NỀN 988
▁HÃY 989
▁VƯỢT 990
▁ƠI 991
▁ĐẨY 992
▁CAN 993
▁CHẲNG 994
▁XÚC 995
▁ĐỜ 996
▁DÊ 997
▁PHỐI 998
▁THỦY 999
▁TRIỀU 1000
Ẹ 1001
▁LU 1002
▁KÉO 1003
Ỏ 1004
▁TRỤ 1005
▁CÀ 1006
▁MÔI 1007
▁SƠ 1008
▁XONG 1009
▁KHỞI 1010
▁LAI 1011
▁LIU 1012
VE 1013
SI 1014
▁LĨNH 1015
▁VIẾT 1016
▁KHỦNG 1017
▁THĂM 1018
▁PỜ 1019
▁PÊ 1020
▁NGỒI 1021
▁LỚP 1022
GA 1023
▁KHỎE 1024
▁XỜ 1025
▁NHỜ 1026
▁PHẠT 1027
▁BẠC 1028
SH 1029
▁HÔN 1030
▁TÂN 1031
▁NEW 1032
▁HƯƠNG 1033
BI 1034
▁VÂNG 1035
▁HIỂM 1036
▁QUỜ 1037
▁LẮM 1038
VA 1039
▁QUANG 1040
▁TAI 1041
▁BẢNG 1042
▁HỒNG 1043
▁ƠN 1044
▁CÚ 1045
▁NỖ 1046
▁MỘ 1047
▁MỐI 1048
▁KÍCH 1049
▁BO 1050
▁BẦU 1051
ÁN 1052
▁BUỘC 1053
▁NẶNG 1054
▁COI 1055
▁MU 1056
▁NÂNG 1057
▁BỨC 1058
▁HẠI 1059
▁HỌP 1060
▁DÒNG 1061
▁UỐNG 1062
▁SỢ 1063
▁THÚ 1064
▁BE 1065
▁THÍ 1066
▁JA 1067
▁MONG 1068
▁PHIẾU 1069
Ẻ 1070
▁SYRIA 1071
Ờ 1072
▁MIỀN 1073
▁MAR 1074
▁HẠT 1075
▁GIẤY 1076
▁THẤT 1077
ƯƠNG 1078
▁VẺ 1079
▁SUẤT 1080
▁HÚT 1081
▁KA 1082
▁KHÁN 1083
▁NO 1084
▁SAI 1085
BO 1086
▁BÁNH 1087
▁TRUMP 1088
Ị 1089
▁SỚM 1090
▁CẬP 1091
NO 1092
▁MẬT 1093
▁HẢ 1094
▁MÀY 1095
▁KIA 1096
▁SÂU 1097
▁CHÁU 1098
▁YÊN 1099
IS 1100
▁TÍN 1101
▁KHỔ 1102
KA 1103
▁XUYÊN 1104
▁THIỆT 1105
▁THỤ 1106
▁THE 1107
▁BỔ 1108
▁TỐC 1109
▁MỜI 1110
▁VA 1111
▁TRẮNG 1112
▁CLIP 1113
▁CHỜ 1114
▁GIÀNH 1115
0 1116
▁TE 1117
DO 1118
▁CHÁY 1119
▁ĐỎ 1120
▁SONG 1121
▁ỔN 1122
▁HE 1123
KE 1124
ING 1125
▁THỔ 1126
▁CẢI 1127
▁THẬM 1128
▁PHỔ 1129
▁TRÌ 1130
▁THUẾ 1131
▁NHU 1132
FF 1133
▁MÔN 1134
▁NHIỄM 1135
UL 1136
▁THẤP 1137
▁XANH 1138
RY 1139
▁PHÙ 1140
AD 1141
▁LƯƠNG 1142
▁TẠM 1143
▁ĐAU 1144
▁MẮC 1145
1 1146
▁HẠNG 1147
▁LY 1148
▁NHÁ 1149
▁SI 1150
Q 1151
YA 1152
▁MAY 1153
▁GIANG 1154
KO 1155
▁CHÀO 1156
▁KIỂU 1157
▁NGHIÊM 1158
ENT 1159
▁THƠ 1160
▁MÀN 1161
▁GAM 1162
▁PHƯỜNG 1163
▁MAN 1164
▁TIM 1165
▁THƯỞNG 1166
▁CHỤP 1167
▁SUY 1168
▁NGHỈ 1169
▁DỤ 1170
▁DẤU 1171
▁CẦM 1172
▁VÀI 1173
ED 1174
▁ME 1175
▁SÔNG 1176
▁DƯ 1177
▁CHIẾM 1178
▁THẲNG 1179
Ĩ 1180
▁KÍ 1181
▁CAM 1182
▁TIỆN 1183
▁DE 1184
▁XẾP 1185
▁TẦNG 1186
▁HƠI 1187
▁NỐI 1188
▁ĐÀM 1189
▁LÍT 1190
▁CÁNH 1191
▁QUANH 1192
▁LỖI 1193
RU 1194
▁QUEN 1195
▁LƯỢT 1196
ARD 1197
2 1198
▁RÚT 1199
▁THỎA 1200
▁THAO 1201
▁TRẢI 1202
▁ĐỌC 1203
MO 1204
▁SẴN 1205
▁NGỦ 1206
▁MÁU 1207
▁THẺ 1208
▁LÁI 1209
▁NÓNG 1210
▁BINH 1211
▁LOẠT 1212
▁KHÓA 1213
SHI 1214
▁LÂM 1215
▁ƯỚC 1216
▁NHIỆT 1217
▁THƯỢNG 1218
▁ĐỔ 1219
▁FACEBOOK 1220
▁PE 1221
Ẽ 1222
▁ÁNH 1223
▁SẮP 1224
▁QUẦN 1225
▁CHÚT 1226
▁TẦM 1227
PA 1228
▁NUÔI 1229
▁TRUY 1230
▁HÙNG 1231
▁PHÊ 1232
▁NGHỀ 1233
▁WE 1234
▁LẼ 1235
▁PO 1236
▁GAME 1237
▁HẠNH 1238
WA 1239
> 1240
▁ĐÁP 1241
▁CẬN 1242
PE 1243
BER 1244
▁KHẮC 1245
▁ĐỪNG 1246
▁TỤ 1247
▁HỜ 1248
▁CÁN 1249
▁BIỆN 1250
ƯỚC 1251
▁TIỂU 1252
▁ĐỨA 1253
▁ĐEN 1254
▁TẾT 1255
▁LỆNH 1256
▁LỰA 1257
▁SUỐT 1258
▁ỦNG 1259
▁CHỨA 1260
▁BÀY 1261
▁THÙ 1262
▁CẮT 1263
▁KẺ 1264
▁GIÀ 1265
Ễ 1266
▁TRƯƠNG 1267
▁NIỆM 1268
PH 1269
▁CHẮN 1270
ONE 1271
▁NHẤN 1272
▁HẮT 1273
▁TUẤN 1274
▁BÁ 1275
▁VE 1276
▁SÓNG 1277
▁NỔ 1278
▁ĐỘT 1279
▁ĐƯƠNG 1280
▁GIÁC 1281
INE 1282
▁THỪA 1283
▁CUP 1284
▁CHĂM 1285
▁VONG 1286
▁KÊU 1287
VN 1288
▁ƯU 1289
▁TAO 1290
▁TẢ 1291
▁TRÁNH 1292
▁TÚ 1293
▁SÚNG 1294
▁NHẸ 1295
▁THÔN 1296
▁TÁI 1297
▁XUNG 1298
▁NỢ 1299
▁RE 1300
▁PHÁN 1301
▁HÉC 1302
▁KHÁM 1303
BE 1304
▁CHỮ 1305
SON 1306
▁SỨ 1307
▁DẠNG 1308
▁INTERNET 1309
▁CỰU 1310
▁DƯỠNG 1311
▁VINH 1312
▁IRAN 1313
TON 1314
▁IS 1315
▁CÂN 1316
▁HỌA 1317
UNK 1318
▁RƠI 1319
▁PHA 1320
▁CHỮA 1321
▁ĐỊCH 1322
▁LỤC 1323
▁QUÊ 1324
▁THỊT 1325
▁MƯA 1326
▁TẶNG 1327
▁CŨ 1328
▁LƯỢC 1329
▁TUYỆT 1330
▁PHAN 1331
▁CUỐN 1332
MAN 1333
▁NGẠI 1334
▁DỪNG 1335
▁DŨNG 1336
▁BẮN 1337
▁RI 1338
▁THIỆU 1339
▁KHÁNH 1340
▁NẴNG 1341
▁KÍNH 1342
▁NGĂN 1343
▁TẠ 1344
▁CHÓNG 1345
▁CHỈNH 1346
▁TỘC 1347
▁KHOÁN 1348
▁DÂY 1349
▁DỮ 1350
▁ƯƠNG 1351
▁DÕI 1352
GO 1353
▁ĐÁM 1354
▁VÉ 1355
▁CHẶN 1356
▁TÚY 1357
▁CHỢ 1358
▁KHÚC 1359
▁NE 1360
▁TẠP 1361
▁GIẢN 1362
▁KE 1363
▁BẠI 1364
▁NHẮC 1365
▁SÀNG 1366
▁XỨ 1367
Ể 1368
▁CHỞ 1369
▁UKRAINE 1370
▁XU 1371
▁MỪNG 1372
▁TÔN 1373
▁HẤP 1374
▁DẦN 1375
▁TẬN 1376
▁JU 1377
▁KHẢO 1378
▁BĂNG 1379
▁TỆ 1380
▁SỸ 1381
▁KHÔ 1382
▁GO 1383
▁JE 1384
▁NGÔN 1385
▁NHẮN 1386
▁PHẬN 1387
▁BẬT 1388
▁DỊP 1389
▁GẮNG 1390
▁FAN 1391
▁YẾN 1392
▁TẮC 1393
▁RỜI 1394
▁GẮN 1395
▁MỎ 1396
▁THUÊ 1397
Đ 1398
▁VƯƠNG 1399
▁CẶP 1400
▁BUỒN 1401
▁XẤU 1402
▁ĐỢI 1403
▁WA 1404
▁Q 1405
▁QUÊN 1406
Ừ 1407
▁TRẤN 1408
▁NÈ 1409
▁SÀI 1410
▁CẤM 1411
▁NÚI 1412
▁NGẮN 1413
LAND 1414
▁THẨM 1415
▁CƯỜI 1416
▁GIÀU 1417
▁BEN 1418
▁GỐC 1419
▁TỒN 1420
▁SUNG 1421
▁SÓC 1422
▁RÀNG 1423
▁PHẬT 1424
▁THÁC 1425
▁BÓ 1426
▁NGƯỢC 1427
▁THOÁT 1428
ZA 1429
▁SỬA 1430
BANK 1431
▁NGON 1432
▁ĐOÁN 1433
VER 1434
▁PHE 1435
▁FA 1436
▁Ừ 1437
▁NIỀM 1438
▁LIỀN 1439
▁VAY 1440
▁RỪNG 1441
▁IPHONE 1442
▁ĐÍCH 1443
▁VÂN 1444
FI 1445
LLA 1446
SK 1447
▁QUỸ 1448
▁DẠY 1449
▁KÊNH 1450
▁HẦU 1451
Ằ 1452
▁LẠNH 1453
▁GE 1454
▁NHIÊU 1455
▁GÒN 1456
▁THUA 1457
▁MALAYSIA 1458
FA 1459
▁CHẶT 1460
▁HẸN 1461
▁GÀ 1462
▁NGÃ 1463
▁CHÀNG 1464
▁TÓC 1465
▁XÔ 1466
▁HƯNG 1467
▁VIETNAM 1468
▁ĐEM 1469
▁HỦY 1470
▁TẤM 1471
▁TRỐN 1472
▁KÉM 1473
▁MON 1474
▁CƯỚI 1475
▁ĐỈNH 1476
▁NẮM 1477
▁VÕ 1478
▁INDONESIA 1479
▁BÁT 1480
▁Ơ 1481
▁NỬA 1482
▁KỊP 1483
▁BÈ 1484
▁BÃO 1485
▁BOM 1486
▁CHỤC 1487
▁PHILIPPINES 1488
DER 1489
▁ĐỢT 1490
▁ONLINE 1491
▁THUYẾT 1492
▁NHÉ 1493
Õ 1494
▁NÔ 1495
▁XĂNG 1496
▁CĂNG 1497
▁SỮA 1498
▁VĨNH 1499
▁NGHÈO 1500
▁GIÓ 1501
▁VIRUS 1502
▁LÃI 1503
▁ASEAN 1504
▁ĐỠ 1505
▁BUÔN 1506
▁VỮNG 1507
▁PARK 1508
▁LẮNG 1509
▁BỮA 1510
▁THƯA 1511
▁SẠCH 1512
▁MÁI 1513
▁WORLD 1514
▁CHE 1515
▁HÂM 1516
▁QUÀ 1517
▁HÈ 1518
▁KHUYẾN 1519
▁EURO 1520
▁GIẾT 1521
▁KÊ 1522
▁SÀN 1523
▁NGƯ 1524
▁LIỆT 1525
▁KHA 1526
▁MIỄN 1527
▁KIÊN 1528
▁KHIỂN 1529
▁TRỒNG 1530
▁GƯƠNG 1531
▁NGỪNG 1532
▁THĂNG 1533
▁CHIẾU 1534
▁TÚI 1535
▁KHẮP 1536
▁MẼ 1537
▁MƠ 1538
▁TRƯNG 1539
▁TĨNH 1540
▁CƯỚP 1541
▁REUTERS 1542
▁KỊCH 1543
▁CẤU 1544
▁DÀNG 1545
▁NÀNG 1546
▁THAI 1547
▁KÌ 1548
▁ĐỖ 1549
▁THÁCH 1550
▁HỀ 1551
▁SINGAPORE 1552
3 1553
▁APPLE 1554
▁GÓC 1555
▁NGỤ 1556
▁GÓI 1557
▁CHÓ 1558
▁DẬY 1559
LD 1560
▁DỊ 1561
▁NÊU 1562
▁CHẤN 1563
▁NGUYỆN 1564
▁LŨ 1565
▁CHẠM 1566
▁ĐÒI 1567
▁LEAGUE 1568
▁DỌA 1569
▁GẤP 1570
▁DÁNG 1571
▁KHUÔN 1572
▁GIỌNG 1573
▁ĐIỂN 1574
▁MỀM 1575
▁MẠCH 1576
▁Ư 1577
▁SẠN 1578
▁LƯỚI 1579
IÊN 1580
▁RƯỢU 1581
▁ĐUA 1582
▁CAMERA 1583
▁ĐÈN 1584
▁HOẢNG 1585
▁ĐẠN 1586
▁LOÀI 1587
▁CAMPUCHIA 1588
▁TRÙNG 1589
▁MẮN 1590
▁THẬP 1591
▁HƯ 1592
▁XẾ 1593
▁LỒ 1594
▁AUSTRALIA 1595
▁SẮT 1596
▁NHĨ 1597
▁PHƯỚC 1598
▁NGOÁI 1599
▁BÃI 1600
▁NGỮ 1601
▁TÍ 1602
▁ĐUỔI 1603
▁< 1604
▁NGẠC 1605
▁TƯƠI 1606
▁FOR 1607
▁LẪN 1608
▁REAL 1609
▁ẨN 1610
▁THẰNG 1611
▁TIÊM 1612
▁DONALD 1613
▁KHẨN 1614
▁BẠO 1615
▁XƯA 1616
▁LỐI 1617
▁ISRAEL 1618
▁TRỘM 1619
▁GỠ 1620
▁DUYÊN 1621
▁GHẾ 1622
Ử 1623
▁MẠC 1624
5 1625
Ý 1626
Ỷ 1627
4 1628
: 1629
9 1630
Ỵ 1631
7 1632
8 1633
6 1634
Ữ 1635
Ỳ 1636
Ẳ 1637
, 1638
_ 1639
Ỹ 1640
Ẵ 1641
@ 1642
% 1643
' 1644
& 1645
$ 1646
ˈ 1647
° 1648
Ə 1649
Ɪ 1650
< 1651
า 1652
" 1653
= 1654
Ë 1655
Ā 1656
น 1657
Ö 1658
Æ 1659
! 1660
Ï 1661
А 1662
ม 1663
Е 1664
่ 1665
้ 1666
– 1667
ร 1668
Н 1669
+ 1670
ː 1671
Ü 1672
И 1673
ย 1674
Î 1675
ั 1676
ิ 1677
ง 1678
ต 1679
Ʃ 1680
ก 1681
К 1682
Л 1683
Ɡ 1684
Ī 1685
Ɔ 1686
Р 1687
เ 1688
อ 1689
ห 1690
О 1691
จ 1692
В 1693
ี 1694
С 1695
ว 1696
บ 1697
Ō 1698
Ő 1699
Θ 1700
ด 1701
Š 1702
Ä 1703
Ʌ 1704
Т 1705
М 1706
ไ 1707
Ŋ 1708
ɘ 1709
Α 1710
Β 1711
ท 1712
Ɑ 1713
\ 1714
` 1715
Č 1716
Д 1717
ค 1718
* 1719
× 1720
Ø 1721
ɚ 1722
ล 1723
Я 1724
ا 1725
ะ 1726
ل 1727
ي 1728
Й 1729
У 1730
ป 1731
์ 1732
Г 1733
Ǐ 1734
ˌ 1735
− 1736
พ 1737
ข 1738
ฟ 1739
Ɦ 1740
ุ 1741
ส 1742
Б 1743
ن 1744
; 1745
} 1746
Û 1747
Ɒ 1748
Ɜ 1749
ช 1750
| 1751
­ 1752
Ě 1753
Ǒ 1754
َ 1755
ب 1756
所 1757
ه 1758
Μ 1759
Ч 1760
ر 1761
ธ 1762
🎵 1763
П 1764
ہ 1765
ภ 1766
و 1767
Ş 1768
你 1769
的 1770
Ğ 1771
Ό 1772
Π 1773
Ω 1774
Ь 1775
ถ 1776
ผ 1777
ึ 1778
没 1779
超 1780
還 1781
́ 1782
โ 1783
ณ 1784
Ი 1785
З 1786
ت 1787
ـ 1788
Ū 1789
ฮ 1790
有 1791
« 1792
± 1793
» 1794
Å 1795
Ƙ 1796
Ǔ 1797
ɝ 1798
ɳ 1799
̀ 1800
̉ 1801
̣ 1802
ج 1803
س 1804
م 1805
ู 1806
็ 1807
ី 1808
Ḅ 1809
— 1810
• 1811
′ 1812
⃣ 1813
⊙ 1814
⋆ 1815
以 1816
可 1817
炒 1818
秦 1819
몰 1820
소 1821
참 1822
취 1823
️ 1824
💕 1825
🤣 1826
Ł 1827
¿ 1828
ش 1829
们 1830
Ʂ 1831
不 1832
国 1833
美 1834
轻 1835
能 1836
Ვ 1837
沒 1838
果 1839
如 1840
咱 1841
務 1842
任 1843
♥ 1844
Ლ 1845
ฤ 1846
ک 1847
Ы 1848
Ш 1849
Γ 1850
̄ 1851
❤ 1852
ّ 1853
ُ 1854
ع 1855
Ю 1856
ɾ 1857
⌒ 1858
ษ 1859
ศ 1860
Х 1861
ʤ 1862
⁄ 1863
แ 1864
Λ 1865
ᄒ 1866
Ć 1867
{ 1868
̬ 1869
Ʒ 1870
ื 1871
Ð 1872
ใ 1873
Ǎ 1874
ํ 1875
Ñ 1876
̆ 1877
Ʊ 1878
Œ 1879
̂ 1880
Ç 1881
ق 1882
ً 1883
Ś 1884
ʻ 1885
ز 1886
丁 1887
为 1888
卻 1889
拍 1890
腐 1891
花 1892
^ 1893
o 1894
Þ 1895
Ň 1896
Ɗ 1897
Ƣ 1898
Ǹ 1899
ʔ 1900
ʕ 1901
Δ 1902
Ρ 1903
Ё 1904
Ѵ 1905
آ 1906
ئ 1907
ث 1908
ح 1909
ى 1910
ْ 1911
ٰ 1912
ٹ 1913
ڡ 1914
ۉ 1915
ی 1916
ے 1917
ฐ 1918
ฬ 1919
๋ 1920
ភ 1921
ម 1922
យ 1923
រ 1924
ស 1925
ឡ 1926
ា 1927
្ 1928
Ქ 1929
Ṇ 1930
Ἰ 1931
Ὶ 1932
∇ 1933
≥ 1934
≦ 1935
≧ 1936
♛ 1937
♡ 1938
✪ 1939
❖ 1940
『 1941
』 1942
中 1943
丹 1944
丽 1945
么 1946
享 1947
人 1948
什 1949
他 1950
会 1951
位 1952
其 1953
准 1954
几 1955
分 1956
到 1957
剣 1958
华 1959
協 1960
变 1961
哪 1962
單 1963
备 1964
外 1965
失 1966
察 1967
對 1968
小 1969
幾 1970
我 1971
手 1972
拿 1973
探 1974
敗 1975
方 1976
普 1977
朗 1978
样 1979
法 1980
滿 1981
版 1982
特 1983
白 1984
索 1985
组 1986
被 1987
警 1988
議 1989
‪ 1990
د 1991
Ṭ 1992
ฝ 1993
Ა 1994
Ე 1995
Თ 1996
Რ 1997
Შ 1998
Ậ 1999
